#pragma once
#include <stdint.h>

// Modelo CNN MNIST INT8 - TensorFlow Lite
// Tamanho: 5,304 bytes

alignas(16) const unsigned char mnist_cnn_int8_model[] = {
  0x1c, 0x00, 0x00, 0x00, 0x54, 0x46, 0x4c, 0x33, 0x14, 0x00, 0x20, 0x00,
  0x1c, 0x00, 0x18, 0x00, 0x14, 0x00, 0x10, 0x00, 0x0c, 0x00, 0x00, 0x00,
  0x08, 0x00, 0x04, 0x00, 0x14, 0x00, 0x00, 0x00, 0x1c, 0x00, 0x00, 0x00,
  0x98, 0x00, 0x00, 0x00, 0xf0, 0x00, 0x00, 0x00, 0x20, 0x08, 0x00, 0x00,
  0x30, 0x08, 0x00, 0x00, 0x24, 0x14, 0x00, 0x00, 0x03, 0x00, 0x00, 0x00,
  0x01, 0x00, 0x00, 0x00, 0x10, 0x00, 0x00, 0x00, 0x00, 0x00, 0x0a, 0x00,
  0x10, 0x00, 0x0c, 0x00, 0x08, 0x00, 0x04, 0x00, 0x0a, 0x00, 0x00, 0x00,
  0x0c, 0x00, 0x00, 0x00, 0x1c, 0x00, 0x00, 0x00, 0x3c, 0x00, 0x00, 0x00,
  0x0f, 0x00, 0x00, 0x00, 0x73, 0x65, 0x72, 0x76, 0x69, 0x6e, 0x67, 0x5f,
  0x64, 0x65, 0x66, 0x61, 0x75, 0x6c, 0x74, 0x00, 0x01, 0x00, 0x00, 0x00,
  0x04, 0x00, 0x00, 0x00, 0x90, 0xff, 0xff, 0xff, 0x0c, 0x00, 0x00, 0x00,
  0x04, 0x00, 0x00, 0x00, 0x08, 0x00, 0x00, 0x00, 0x6f, 0x75, 0x74, 0x70,
  0x75, 0x74, 0x5f, 0x30, 0x00, 0x00, 0x00, 0x00, 0x01, 0x00, 0x00, 0x00,
  0x04, 0x00, 0x00, 0x00, 0xc2, 0xf7, 0xff, 0xff, 0x04, 0x00, 0x00, 0x00,
  0x0c, 0x00, 0x00, 0x00, 0x6b, 0x65, 0x72, 0x61, 0x73, 0x5f, 0x74, 0x65,
  0x6e, 0x73, 0x6f, 0x72, 0x00, 0x00, 0x00, 0x00, 0x02, 0x00, 0x00, 0x00,
  0x34, 0x00, 0x00, 0x00, 0x04, 0x00, 0x00, 0x00, 0xdc, 0xff, 0xff, 0xff,
  0x0f, 0x00, 0x00, 0x00, 0x04, 0x00, 0x00, 0x00, 0x13, 0x00, 0x00, 0x00,
  0x43, 0x4f, 0x4e, 0x56, 0x45, 0x52, 0x53, 0x49, 0x4f, 0x4e, 0x5f, 0x4d,
  0x45, 0x54, 0x41, 0x44, 0x41, 0x54, 0x41, 0x00, 0x08, 0x00, 0x0c, 0x00,
  0x08, 0x00, 0x04, 0x00, 0x08, 0x00, 0x00, 0x00, 0x0e, 0x00, 0x00, 0x00,
  0x04, 0x00, 0x00, 0x00, 0x13, 0x00, 0x00, 0x00, 0x6d, 0x69, 0x6e, 0x5f,
  0x72, 0x75, 0x6e, 0x74, 0x69, 0x6d, 0x65, 0x5f, 0x76, 0x65, 0x72, 0x73,
  0x69, 0x6f, 0x6e, 0x00, 0x10, 0x00, 0x00, 0x00, 0x2c, 0x07, 0x00, 0x00,
  0x24, 0x07, 0x00, 0x00, 0x0c, 0x07, 0x00, 0x00, 0xd4, 0x06, 0x00, 0x00,
  0x24, 0x06, 0x00, 0x00, 0xd4, 0x05, 0x00, 0x00, 0x44, 0x01, 0x00, 0x00,
  0x14, 0x01, 0x00, 0x00, 0xbc, 0x00, 0x00, 0x00, 0xb4, 0x00, 0x00, 0x00,
  0xac, 0x00, 0x00, 0x00, 0xa4, 0x00, 0x00, 0x00, 0x9c, 0x00, 0x00, 0x00,
  0x94, 0x00, 0x00, 0x00, 0x74, 0x00, 0x00, 0x00, 0x04, 0x00, 0x00, 0x00,
  0x7e, 0xf8, 0xff, 0xff, 0x04, 0x00, 0x00, 0x00, 0x60, 0x00, 0x00, 0x00,
  0x0c, 0x00, 0x00, 0x00, 0x08, 0x00, 0x0e, 0x00, 0x08, 0x00, 0x04, 0x00,
  0x08, 0x00, 0x00, 0x00, 0x10, 0x00, 0x00, 0x00, 0x28, 0x00, 0x00, 0x00,
  0x00, 0x00, 0x06, 0x00, 0x08, 0x00, 0x04, 0x00, 0x06, 0x00, 0x00, 0x00,
  0x04, 0x00, 0x00, 0x00, 0x01, 0x00, 0x00, 0x00, 0xeb, 0x03, 0x00, 0x00,
  0x0c, 0x00, 0x18, 0x00, 0x14, 0x00, 0x10, 0x00, 0x0c, 0x00, 0x04, 0x00,
  0x0c, 0x00, 0x00, 0x00, 0xbd, 0x5d, 0xeb, 0x8d, 0x91, 0xba, 0xc2, 0x45,
  0x02, 0x00, 0x00, 0x00, 0x02, 0x00, 0x00, 0x00, 0x04, 0x00, 0x00, 0x00,
  0x06, 0x00, 0x00, 0x00, 0x32, 0x2e, 0x32, 0x30, 0x2e, 0x30, 0x00, 0x00,
  0xea, 0xf8, 0xff, 0xff, 0x04, 0x00, 0x00, 0x00, 0x10, 0x00, 0x00, 0x00,
  0x31, 0x2e, 0x31, 0x34, 0x2e, 0x30, 0x00, 0x00, 0x00, 0x00, 0x00, 0x00,
  0x00, 0x00, 0x00, 0x00, 0x60, 0xee, 0xff, 0xff, 0x64, 0xee, 0xff, 0xff,
  0x68, 0xee, 0xff, 0xff, 0x6c, 0xee, 0xff, 0xff, 0x70, 0xee, 0xff, 0xff,
  0x1a, 0xf9, 0xff, 0xff, 0x04, 0x00, 0x00, 0x00, 0x48, 0x00, 0x00, 0x00,
  0x58, 0x38, 0x1e, 0xa4, 0xf4, 0x81, 0x97, 0xde, 0x01, 0x81, 0xf3, 0xa4,
  0xf2, 0x0f, 0xce, 0x41, 0x18, 0x20, 0x7e, 0x3d, 0x15, 0x98, 0xf3, 0xce,
  0x8e, 0xfc, 0x7f, 0xab, 0x81, 0x94, 0x0c, 0x16, 0xe4, 0x0b, 0x00, 0xdf,
  0x7f, 0x00, 0x6f, 0x26, 0x03, 0x0a, 0x75, 0xfc, 0x6b, 0xd5, 0x15, 0x7f,
  0xb1, 0xf9, 0xf5, 0xc9, 0x18, 0x6f, 0xfb, 0x0d, 0x40, 0x11, 0x2d, 0x22,
  0x81, 0xc2, 0x8e, 0x42, 0x0c, 0xe3, 0x2f, 0x1d, 0xe7, 0xbf, 0xdd, 0x81,
  0x6e, 0xf9, 0xff, 0xff, 0x04, 0x00, 0x00, 0x00, 0x20, 0x00, 0x00, 0x00,
  0xb3, 0xff, 0xff, 0xff, 0x04, 0x00, 0x00, 0x00, 0x71, 0xdd, 0xff, 0xff,
  0xa6, 0x43, 0x00, 0x00, 0xce, 0x23, 0x00, 0x00, 0x08, 0x00, 0x00, 0x00,
  0x6a, 0x09, 0x00, 0x00, 0xe0, 0x13, 0x00, 0x00, 0x9a, 0xf9, 0xff, 0xff,
  0x04, 0x00, 0x00, 0x00, 0x80, 0x04, 0x00, 0x00, 0x46, 0xff, 0xdd, 0xe3,
  0xec, 0xf5, 0xcd, 0x1b, 0xf5, 0x15, 0x0e, 0xa6, 0x18, 0x05, 0xf4, 0x0c,
  0x18, 0x42, 0x05, 0x9f, 0x09, 0x13, 0x22, 0xf5, 0x13, 0xc1, 0xd1, 0x05,
  0xed, 0x40, 0xf3, 0xeb, 0x3e, 0x20, 0xca, 0xff, 0xdd, 0x01, 0xfb, 0xf9,
  0x5f, 0x18, 0xf3, 0x12, 0xf5, 0x0b, 0x02, 0x1c, 0x2e, 0xd2, 0xcf, 0x27,
  0x81, 0x1c, 0xd4, 0x66, 0x1a, 0x35, 0xbc, 0x09, 0x17, 0x13, 0xbe, 0x7e,
  0xf2, 0x0c, 0xdc, 0x16, 0x1a, 0x12, 0xc7, 0x7b, 0x29, 0x26, 0xfa, 0xbc,
  0xce, 0xdf, 0x15, 0xdc, 0x12, 0x0a, 0xe7, 0xab, 0xfb, 0xf3, 0xee, 0xf7,
  0x02, 0xf4, 0xff, 0xc1, 0x45, 0x1e, 0x01, 0x02, 0xcc, 0xff, 0x0c, 0x95,
  0x08, 0x0b, 0xb9, 0xf5, 0x98, 0xb1, 0x29, 0x81, 0xb4, 0xe3, 0x9e, 0x23,
  0xc9, 0x2f, 0x24, 0xf6, 0xe7, 0xc7, 0xdc, 0x3f, 0x9d, 0xa7, 0x24, 0x26,
  0xf1, 0xf0, 0xd2, 0xf5, 0xcb, 0xe5, 0x07, 0x10, 0xf7, 0x02, 0xee, 0xf0,
  0x20, 0x4a, 0x08, 0x3a, 0x17, 0xed, 0x31, 0xed, 0x0e, 0x22, 0x06, 0xf2,
  0x81, 0xf8, 0xea, 0x50, 0x07, 0x20, 0x06, 0xcb, 0xf2, 0xda, 0xe2, 0x4a,
  0xf1, 0x27, 0x02, 0xd1, 0x23, 0x27, 0xfd, 0x33, 0x21, 0x50, 0x0c, 0xa2,
  0xf1, 0xe4, 0x09, 0x18, 0xfb, 0x3b, 0x26, 0x99, 0x0f, 0x9c, 0xff, 0x1a,
  0xf8, 0xfa, 0x43, 0xf3, 0x03, 0xa5, 0x1b, 0x0f, 0xc2, 0x21, 0x4d, 0xde,
  0x07, 0xff, 0xae, 0xf6, 0xdc, 0x36, 0x5a, 0xd6, 0xf0, 0x0f, 0x0a, 0xce,
  0x12, 0x0d, 0x30, 0xd2, 0x0b, 0xf8, 0x32, 0xda, 0x1e, 0x29, 0xe0, 0x96,
  0xb2, 0x06, 0xbe, 0x2e, 0x18, 0xd6, 0xc2, 0xa2, 0xbb, 0x42, 0xcc, 0x7e,
  0x0d, 0x95, 0xdd, 0x06, 0xb2, 0x3f, 0xfa, 0x79, 0x04, 0x1e, 0xfb, 0x0c,
  0x4d, 0xef, 0x2c, 0xc3, 0x48, 0xa0, 0xd6, 0x0c, 0x09, 0x32, 0x44, 0xe1,
  0x53, 0xcd, 0xda, 0xd8, 0x0a, 0x1f, 0x4a, 0x13, 0xe8, 0x6b, 0x10, 0x12,
  0x42, 0xf7, 0x4b, 0x81, 0x17, 0x01, 0x18, 0x4a, 0xda, 0xf0, 0x52, 0x95,
  0x3e, 0x93, 0x01, 0xe0, 0x01, 0xfb, 0x4f, 0xdf, 0x10, 0x62, 0x27, 0xf5,
  0x1d, 0xce, 0x3b, 0xec, 0x09, 0x09, 0x17, 0xd0, 0x12, 0xfe, 0x26, 0xc6,
  0x04, 0xdf, 0xfc, 0xe7, 0xcc, 0x2f, 0x00, 0xf3, 0x19, 0x41, 0x38, 0x15,
  0x08, 0xd4, 0x5a, 0xd0, 0x22, 0x19, 0x09, 0xe7, 0x28, 0xd1, 0x40, 0xbe,
  0x10, 0xd2, 0xdf, 0xf5, 0xbd, 0x09, 0xec, 0x05, 0x13, 0xfd, 0x2d, 0x02,
  0xe8, 0xb5, 0x34, 0xf1, 0x28, 0x18, 0xf9, 0x02, 0x37, 0xe0, 0x4c, 0xd2,
  0x5a, 0xc3, 0xbe, 0x7f, 0xea, 0xee, 0x16, 0xfb, 0xe3, 0xda, 0x15, 0xe6,
  0x1c, 0x0e, 0x00, 0xca, 0xd5, 0x18, 0xfa, 0xcc, 0xe8, 0x3f, 0xf6, 0x26,
  0xf6, 0x18, 0xe4, 0xb6, 0xdd, 0x22, 0xf2, 0x1f, 0xec, 0xe3, 0xe2, 0x3c,
  0x40, 0x17, 0xfd, 0xa3, 0x77, 0x19, 0xd2, 0x7f, 0x1e, 0x1f, 0x1b, 0xd1,
  0x3f, 0xf3, 0xd7, 0x27, 0x0d, 0x15, 0xf4, 0xf5, 0xd5, 0x2d, 0xef, 0x0a,
  0xb9, 0x11, 0x2d, 0xe9, 0x1c, 0x3c, 0xce, 0x1e, 0xdc, 0x27, 0x33, 0xf5,
  0xf5, 0x06, 0xd2, 0x12, 0xca, 0x11, 0x1e, 0x1d, 0xe4, 0x00, 0x03, 0x5b,
  0x5b, 0x08, 0xce, 0xf7, 0xfc, 0xd9, 0xfc, 0xf7, 0xe8, 0x14, 0xee, 0xfd,
  0x49, 0xf7, 0xc9, 0x16, 0xb8, 0x21, 0x06, 0x71, 0x81, 0xd3, 0x37, 0x72,
  0x2c, 0x34, 0xae, 0x18, 0xd4, 0x05, 0xe3, 0x1b, 0x06, 0x4a, 0xe5, 0xec,
  0x74, 0x28, 0xe0, 0xec, 0x01, 0x2d, 0x50, 0x1d, 0xf3, 0x11, 0xed, 0x2f,
  0x05, 0xbe, 0xc0, 0x23, 0xef, 0xf0, 0xe2, 0x01, 0x11, 0xdf, 0x2f, 0xb5,
  0x64, 0xcd, 0xeb, 0x45, 0xf6, 0x00, 0x49, 0xdb, 0xb4, 0xfb, 0xd5, 0x0e,
  0x27, 0x26, 0xa2, 0xff, 0xbb, 0x16, 0x0e, 0xce, 0x01, 0x06, 0x9e, 0x44,
  0x00, 0x03, 0xed, 0xc9, 0x60, 0x14, 0xbd, 0x51, 0xca, 0x34, 0xca, 0xf4,
  0x99, 0x35, 0xbd, 0x13, 0x81, 0x44, 0x05, 0xf5, 0xc4, 0x13, 0x99, 0x22,
  0xc4, 0xbb, 0x0c, 0xfa, 0x11, 0x05, 0xbd, 0x1c, 0xcf, 0x30, 0xed, 0xd8,
  0xa2, 0x2b, 0xa5, 0x62, 0x89, 0x40, 0x22, 0xc7, 0x03, 0x22, 0xbb, 0x52,
  0xb2, 0xbc, 0x18, 0x04, 0xee, 0x13, 0xf1, 0x1e, 0xbd, 0x19, 0x19, 0xc9,
  0xea, 0xe3, 0xfe, 0x12, 0xac, 0x00, 0x4e, 0x9a, 0xd4, 0xe3, 0xf3, 0x0d,
  0xc0, 0xaf, 0x3a, 0xe4, 0xe4, 0x10, 0xba, 0x17, 0xb4, 0x21, 0x45, 0xc6,
  0x04, 0xe5, 0xf2, 0xeb, 0x81, 0xf8, 0x6c, 0x8f, 0x07, 0xc6, 0x04, 0xee,
  0xbc, 0xd3, 0x22, 0xcd, 0xfe, 0xde, 0xd3, 0x01, 0xe0, 0x19, 0x16, 0x01,
  0x16, 0xe2, 0xd3, 0x15, 0xb9, 0x0c, 0x31, 0xfc, 0xff, 0xd5, 0xd9, 0x17,
  0xff, 0xff, 0x12, 0x2a, 0x10, 0xee, 0xec, 0x16, 0xf0, 0x07, 0xfe, 0x2f,
  0xde, 0x08, 0x28, 0x31, 0xe7, 0xdf, 0xf3, 0x06, 0xff, 0x44, 0x1d, 0xfe,
  0xe1, 0x99, 0xfd, 0x6c, 0xb1, 0x52, 0xa8, 0x20, 0x4f, 0x11, 0x07, 0x21,
  0x2f, 0xf0, 0x45, 0x27, 0x1a, 0xff, 0xc9, 0xa9, 0x3a, 0x0e, 0x06, 0x10,
  0xe2, 0xf3, 0xd1, 0xea, 0xe6, 0x2b, 0xa4, 0x1a, 0x7f, 0xd1, 0xff, 0x18,
  0xb4, 0xbb, 0x16, 0x0d, 0x5f, 0x15, 0xc0, 0x25, 0x2d, 0x9e, 0xf7, 0x33,
  0xf3, 0x20, 0xdc, 0x02, 0x38, 0xf6, 0x02, 0x0c, 0x06, 0x11, 0xfa, 0x63,
  0xed, 0x1d, 0x0a, 0xe0, 0x27, 0x03, 0xf7, 0x44, 0xfe, 0x04, 0xfc, 0xe5,
  0x19, 0xee, 0xf0, 0x48, 0x07, 0xfb, 0xe2, 0x05, 0xdf, 0x20, 0x02, 0xef,
  0xfb, 0x0a, 0xdb, 0x4a, 0xf6, 0xf6, 0xf9, 0xd9, 0xd1, 0x0d, 0xf0, 0x4c,
  0xf0, 0x81, 0xf6, 0x14, 0xf7, 0x0e, 0xf0, 0x27, 0xeb, 0xfd, 0x00, 0xea,
  0x28, 0x3a, 0xf5, 0xfd, 0x0d, 0xd9, 0xf4, 0xdd, 0xe8, 0x4c, 0xfe, 0xf1,
  0x01, 0xb2, 0xf4, 0xa7, 0xef, 0x35, 0xd5, 0xf8, 0x1d, 0x05, 0xf7, 0x7f,
  0x13, 0xfe, 0x33, 0xc3, 0x42, 0x33, 0xe9, 0x29, 0xf3, 0xd7, 0x2e, 0xc2,
  0x07, 0x2b, 0xe8, 0x1d, 0x02, 0xef, 0x00, 0x07, 0xf7, 0x0b, 0x01, 0x07,
  0x0f, 0x0e, 0xc1, 0xe5, 0x1b, 0x30, 0xee, 0xe1, 0xf7, 0x0c, 0x1d, 0xd3,
  0x02, 0x0a, 0xef, 0xf9, 0xef, 0xfd, 0x23, 0xf8, 0xdb, 0x09, 0xf6, 0x11,
  0x0e, 0xfe, 0x20, 0xe7, 0x1a, 0x14, 0xe6, 0x22, 0xea, 0xf9, 0x49, 0xa9,
  0x5b, 0x32, 0xf1, 0x2c, 0x40, 0xff, 0x26, 0xd6, 0x02, 0x81, 0xfc, 0x54,
  0x36, 0x0f, 0xd7, 0x06, 0x30, 0x0a, 0xd3, 0xea, 0xd4, 0x00, 0x00, 0x14,
  0x3e, 0x07, 0xeb, 0x0f, 0xa7, 0x0b, 0x08, 0x3d, 0x09, 0xbc, 0xb4, 0x36,
  0x2a, 0x30, 0xdb, 0x12, 0x21, 0x15, 0xca, 0xea, 0xf6, 0x5f, 0x43, 0xef,
  0x31, 0xe0, 0x03, 0xd8, 0xd2, 0x42, 0x38, 0xfe, 0xf7, 0x24, 0xdd, 0xe3,
  0x0a, 0x52, 0x24, 0xd9, 0x40, 0xeb, 0xe8, 0x12, 0x01, 0x55, 0x55, 0xcd,
  0x21, 0xba, 0x10, 0x51, 0xb5, 0x0e, 0x21, 0xf2, 0xfd, 0xfb, 0xeb, 0x40,
  0xc5, 0x10, 0x08, 0xc3, 0x45, 0x41, 0xd5, 0xe8, 0xd4, 0xf3, 0x2c, 0x36,
  0x14, 0x23, 0xe4, 0xc3, 0xf8, 0xee, 0xf7, 0x31, 0xeb, 0x37, 0xc6, 0x0a,
  0xed, 0x25, 0x31, 0xe4, 0x67, 0x7f, 0xa7, 0xeb, 0x09, 0x0f, 0x42, 0x09,
  0x6d, 0x48, 0xcb, 0xc5, 0xfd, 0xdb, 0x23, 0x18, 0x2f, 0x00, 0xe8, 0x40,
  0xc8, 0xf9, 0x1d, 0xe7, 0x54, 0x44, 0xe0, 0x26, 0x24, 0xe0, 0xf8, 0xe6,
  0xf6, 0x28, 0x0b, 0xbb, 0x40, 0xf7, 0x2a, 0xaf, 0x7f, 0x37, 0xf0, 0x45,
  0x25, 0x0f, 0x43, 0xbe, 0x27, 0x0a, 0xec, 0x5e, 0x2e, 0x36, 0x49, 0xa5,
  0xe9, 0x07, 0xf4, 0x45, 0xb7, 0x0e, 0x02, 0xd2, 0x75, 0x1e, 0xd8, 0xf6,
  0xdb, 0x09, 0x17, 0x2f, 0x43, 0x48, 0xb4, 0x0d, 0x42, 0x39, 0x2f, 0xf2,
  0x2e, 0xfe, 0x93, 0x33, 0xc7, 0x70, 0xc6, 0xeb, 0x43, 0x0f, 0xe7, 0xd0,
  0xc2, 0xde, 0xbf, 0x50, 0x53, 0x3a, 0xd2, 0xfa, 0x47, 0x06, 0xc5, 0x6f,
  0xe4, 0xfd, 0xc4, 0xf4, 0xb3, 0x3b, 0xc2, 0x64, 0xf4, 0x32, 0x04, 0x9d,
  0xb2, 0xf4, 0x0c, 0x13, 0xd8, 0x11, 0x29, 0x81, 0xdf, 0xe2, 0xff, 0xeb,
  0xde, 0xf4, 0x3c, 0xf0, 0x20, 0xc8, 0x2e, 0xe8, 0xa2, 0xf5, 0x4e, 0x88,
  0xed, 0xc5, 0xfb, 0xf6, 0x98, 0xeb, 0x74, 0x8d, 0xd1, 0xce, 0xe7, 0xe3,
  0x0a, 0xfb, 0x2a, 0xcf, 0xdc, 0xe7, 0x1c, 0xf0, 0xd0, 0x01, 0x1d, 0xba,
  0x3f, 0x0f, 0x15, 0xca, 0xbc, 0xd8, 0x21, 0xe3, 0xd8, 0xe7, 0x23, 0xd6,
  0x3d, 0x06, 0xda, 0xed, 0x1c, 0x02, 0x0f, 0xe5, 0x26, 0xfe, 0xff, 0xff,
  0x04, 0x00, 0x00, 0x00, 0x40, 0x00, 0x00, 0x00, 0x37, 0x0d, 0x00, 0x00,
  0x85, 0x5f, 0x00, 0x00, 0xef, 0x3f, 0x00, 0x00, 0x2e, 0x1e, 0x00, 0x00,
  0x07, 0x0e, 0x00, 0x00, 0xfb, 0xf8, 0xff, 0xff, 0x9c, 0xc2, 0xff, 0xff,
  0x62, 0x27, 0x00, 0x00, 0xc7, 0x56, 0x00, 0x00, 0x77, 0xe0, 0xff, 0xff,
  0x77, 0xf2, 0xff, 0xff, 0x26, 0xe9, 0xff, 0xff, 0x1c, 0xeb, 0xff, 0xff,
  0x2f, 0x0d, 0x00, 0x00, 0xc1, 0xd5, 0xff, 0xff, 0xb3, 0x90, 0x00, 0x00,
  0x72, 0xfe, 0xff, 0xff, 0x04, 0x00, 0x00, 0x00, 0xa0, 0x00, 0x00, 0x00,
  0x60, 0x3f, 0xec, 0xd3, 0x40, 0x8d, 0x81, 0x77, 0x2c, 0xd2, 0x1a, 0x38,
  0xf1, 0xf0, 0x93, 0xff, 0xde, 0xac, 0x81, 0x9f, 0xef, 0x13, 0x2e, 0x15,
  0xde, 0x57, 0x49, 0x0e, 0x26, 0xce, 0x1f, 0x91, 0x5c, 0x08, 0xf1, 0xeb,
  0x65, 0x12, 0x16, 0x81, 0x30, 0x90, 0x5e, 0x02, 0xd5, 0x39, 0xc0, 0xba,
  0xfe, 0xb9, 0x09, 0x34, 0xd3, 0xf9, 0x25, 0x81, 0x22, 0xed, 0xd6, 0x2a,
  0x1c, 0x41, 0xe9, 0xfb, 0xda, 0x4f, 0x97, 0x7f, 0xbc, 0x0a, 0xef, 0xeb,
  0xf2, 0xd0, 0x41, 0x82, 0x60, 0xae, 0x3f, 0xf1, 0xae, 0x81, 0x1b, 0x22,
  0x5c, 0xfe, 0xe0, 0xe6, 0xab, 0x4f, 0xf9, 0x32, 0x9a, 0x26, 0x3b, 0xfb,
  0x2c, 0x1a, 0xdd, 0xaf, 0x65, 0x28, 0xc6, 0x10, 0x02, 0xf4, 0x4d, 0x81,
  0xa7, 0xaf, 0x4b, 0x27, 0x67, 0x11, 0x1c, 0xd4, 0x92, 0x43, 0x48, 0x17,
  0x87, 0x04, 0x96, 0x59, 0x16, 0x7f, 0xa2, 0x98, 0x81, 0xfa, 0x2b, 0x0a,
  0xe4, 0xbb, 0xde, 0xfb, 0x4e, 0x3f, 0xe5, 0xe2, 0xc9, 0xe4, 0x34, 0x53,
  0xf0, 0x05, 0x7f, 0xc3, 0x85, 0x45, 0x3d, 0x1e, 0xcf, 0xec, 0x85, 0xb4,
  0x4c, 0x05, 0xdb, 0x61, 0x1e, 0xff, 0xff, 0xff, 0x04, 0x00, 0x00, 0x00,
  0x28, 0x00, 0x00, 0x00, 0x20, 0x00, 0x00, 0x00, 0xff, 0x04, 0x00, 0x00,
  0xbd, 0xfc, 0xff, 0xff, 0x93, 0x00, 0x00, 0x00, 0x40, 0x00, 0x00, 0x00,
  0xf9, 0xfe, 0xff, 0xff, 0x32, 0x00, 0x00, 0x00, 0x53, 0xfc, 0xff, 0xff,
  0xbd, 0x00, 0x00, 0x00, 0xb8, 0x00, 0x00, 0x00, 0x52, 0xff, 0xff, 0xff,
  0x04, 0x00, 0x00, 0x00, 0x08, 0x00, 0x00, 0x00, 0x01, 0x00, 0x00, 0x00,
  0x02, 0x00, 0x00, 0x00, 0xc0, 0xf4, 0xff, 0xff, 0xc4, 0xf4, 0xff, 0xff,
  0x0f, 0x00, 0x00, 0x00, 0x4d, 0x4c, 0x49, 0x52, 0x20, 0x43, 0x6f, 0x6e,
  0x76, 0x65, 0x72, 0x74, 0x65, 0x64, 0x2e, 0x00, 0x01, 0x00, 0x00, 0x00,
  0x14, 0x00, 0x00, 0x00, 0x00, 0x00, 0x0e, 0x00, 0x18, 0x00, 0x14, 0x00,
  0x10, 0x00, 0x0c, 0x00, 0x08, 0x00, 0x04, 0x00, 0x0e, 0x00, 0x00, 0x00,
  0x14, 0x00, 0x00, 0x00, 0x1c, 0x00, 0x00, 0x00, 0x80, 0x01, 0x00, 0x00,
  0x84, 0x01, 0x00, 0x00, 0x88, 0x01, 0x00, 0x00, 0x04, 0x00, 0x00, 0x00,
  0x6d, 0x61, 0x69, 0x6e, 0x00, 0x00, 0x00, 0x00, 0x05, 0x00, 0x00, 0x00,
  0x1c, 0x01, 0x00, 0x00, 0xcc, 0x00, 0x00, 0x00, 0x98, 0x00, 0x00, 0x00,
  0x50, 0x00, 0x00, 0x00, 0x14, 0x00, 0x00, 0x00, 0x00, 0x00, 0x0e, 0x00,
  0x1a, 0x00, 0x14, 0x00, 0x10, 0x00, 0x0c, 0x00, 0x0b, 0x00, 0x04, 0x00,
  0x0e, 0x00, 0x00, 0x00, 0x1c, 0x00, 0x00, 0x00, 0x00, 0x00, 0x00, 0x09,
  0x1c, 0x00, 0x00, 0x00, 0x20, 0x00, 0x00, 0x00, 0x03, 0x00, 0x00, 0x00,
  0x00, 0x00, 0x06, 0x00, 0x08, 0x00, 0x04, 0x00, 0x06, 0x00, 0x00, 0x00,
  0x00, 0x00, 0x80, 0x3f, 0x01, 0x00, 0x00, 0x00, 0x0c, 0x00, 0x00, 0x00,
  0x01, 0x00, 0x00, 0x00, 0x0b, 0x00, 0x00, 0x00, 0xca, 0xff, 0xff, 0xff,
  0x14, 0x00, 0x00, 0x00, 0x00, 0x00, 0x00, 0x08, 0x10, 0x00, 0x00, 0x00,
  0x14, 0x00, 0x00, 0x00, 0x02, 0x00, 0x00, 0x00, 0x90, 0xf5, 0xff, 0xff,
  0x01, 0x00, 0x00, 0x00, 0x0b, 0x00, 0x00, 0x00, 0x03, 0x00, 0x00, 0x00,
  0x0a, 0x00, 0x00, 0x00, 0x03, 0x00, 0x00, 0x00, 0x02, 0x00, 0x00, 0x00,
  0x00, 0x00, 0x0e, 0x00, 0x18, 0x00, 0x14, 0x00, 0x10, 0x00, 0x0c, 0x00,
  0x0b, 0x00, 0x04, 0x00, 0x0e, 0x00, 0x00, 0x00, 0x14, 0x00, 0x00, 0x00,
  0x00, 0x00, 0x00, 0x1b, 0x10, 0x00, 0x00, 0x00, 0x14, 0x00, 0x00, 0x00,
  0x01, 0x00, 0x00, 0x00, 0xd4, 0xf5, 0xff, 0xff, 0x01, 0x00, 0x00, 0x00,
  0x0a, 0x00, 0x00, 0x00, 0x02, 0x00, 0x00, 0x00, 0x09, 0x00, 0x00, 0x00,
  0x01, 0x00, 0x00, 0x00, 0xc2, 0xff, 0xff, 0xff, 0x10, 0x00, 0x00, 0x00,
  0x00, 0x00, 0x00, 0x01, 0x18, 0x00, 0x00, 0x00, 0x1c, 0x00, 0x00, 0x00,
  0xb4, 0xff, 0xff, 0xff, 0x00, 0x00, 0x00, 0x01, 0x02, 0x00, 0x00, 0x00,
  0x02, 0x00, 0x00, 0x00, 0x01, 0x00, 0x00, 0x00, 0x09, 0x00, 0x00, 0x00,
  0x03, 0x00, 0x00, 0x00, 0x08, 0x00, 0x00, 0x00, 0x05, 0x00, 0x00, 0x00,
  0x04, 0x00, 0x00, 0x00, 0x00, 0x00, 0x0e, 0x00, 0x14, 0x00, 0x00, 0x00,
  0x10, 0x00, 0x0c, 0x00, 0x0b, 0x00, 0x04, 0x00, 0x0e, 0x00, 0x00, 0x00,
  0x1c, 0x00, 0x00, 0x00, 0x00, 0x00, 0x00, 0x01, 0x24, 0x00, 0x00, 0x00,
  0x28, 0x00, 0x00, 0x00, 0x0c, 0x00, 0x10, 0x00, 0x00, 0x00, 0x0c, 0x00,
  0x08, 0x00, 0x07, 0x00, 0x0c, 0x00, 0x00, 0x00, 0x00, 0x00, 0x00, 0x01,
  0x02, 0x00, 0x00, 0x00, 0x02, 0x00, 0x00, 0x00, 0x01, 0x00, 0x00, 0x00,
  0x08, 0x00, 0x00, 0x00, 0x03, 0x00, 0x00, 0x00, 0x00, 0x00, 0x00, 0x00,
  0x07, 0x00, 0x00, 0x00, 0x06, 0x00, 0x00, 0x00, 0x01, 0x00, 0x00, 0x00,
  0x0c, 0x00, 0x00, 0x00, 0x01, 0x00, 0x00, 0x00, 0x00, 0x00, 0x00, 0x00,
  0x0d, 0x00, 0x00, 0x00, 0xa8, 0x09, 0x00, 0x00, 0x4c, 0x09, 0x00, 0x00,
  0x64, 0x08, 0x00, 0x00, 0x90, 0x07, 0x00, 0x00, 0x7c, 0x06, 0x00, 0x00,
  0x58, 0x05, 0x00, 0x00, 0xa4, 0x04, 0x00, 0x00, 0xe0, 0x03, 0x00, 0x00,
  0xcc, 0x02, 0x00, 0x00, 0xb0, 0x01, 0x00, 0x00, 0x1c, 0x01, 0x00, 0x00,
  0x80, 0x00, 0x00, 0x00, 0x04, 0x00, 0x00, 0x00, 0xa2, 0xf6, 0xff, 0xff,
  0x00, 0x00, 0x00, 0x01, 0x18, 0x00, 0x00, 0x00, 0x20, 0x00, 0x00, 0x00,
  0x3c, 0x00, 0x00, 0x00, 0x0d, 0x00, 0x00, 0x00, 0x00, 0x00, 0x00, 0x09,
  0x50, 0x00, 0x00, 0x00, 0x02, 0x00, 0x00, 0x00, 0xff, 0xff, 0xff, 0xff,
  0x0a, 0x00, 0x00, 0x00, 0x84, 0xf6, 0xff, 0xff, 0x08, 0x00, 0x00, 0x00,
  0x10, 0x00, 0x00, 0x00, 0x01, 0x00, 0x00, 0x00, 0x80, 0xff, 0xff, 0xff,
  0xff, 0xff, 0xff, 0xff, 0x01, 0x00, 0x00, 0x00, 0x00, 0x00, 0x80, 0x3b,
  0x1b, 0x00, 0x00, 0x00, 0x53, 0x74, 0x61, 0x74, 0x65, 0x66, 0x75, 0x6c,
  0x50, 0x61, 0x72, 0x74, 0x69, 0x74, 0x69, 0x6f, 0x6e, 0x65, 0x64, 0x43,
  0x61, 0x6c, 0x6c, 0x5f, 0x31, 0x3a, 0x30, 0x00, 0x02, 0x00, 0x00, 0x00,
  0x01, 0x00, 0x00, 0x00, 0x0a, 0x00, 0x00, 0x00, 0x1a, 0xf7, 0xff, 0xff,
  0x00, 0x00, 0x00, 0x01, 0x18, 0x00, 0x00, 0x00, 0x20, 0x00, 0x00, 0x00,
  0x3c, 0x00, 0x00, 0x00, 0x0c, 0x00, 0x00, 0x00, 0x00, 0x00, 0x00, 0x09,
  0x70, 0x00, 0x00, 0x00, 0x02, 0x00, 0x00, 0x00, 0xff, 0xff, 0xff, 0xff,
  0x0a, 0x00, 0x00, 0x00, 0xfc, 0xf6, 0xff, 0xff, 0x08, 0x00, 0x00, 0x00,
  0x10, 0x00, 0x00, 0x00, 0x01, 0x00, 0x00, 0x00, 0x3a, 0x00, 0x00, 0x00,
  0x00, 0x00, 0x00, 0x00, 0x01, 0x00, 0x00, 0x00, 0x9c, 0x58, 0x05, 0x3e,
  0x38, 0x00, 0x00, 0x00, 0x73, 0x65, 0x71, 0x75, 0x65, 0x6e, 0x74, 0x69,
  0x61, 0x6c, 0x5f, 0x31, 0x2f, 0x64, 0x65, 0x6e, 0x73, 0x65, 0x5f, 0x31,
  0x2f, 0x4d, 0x61, 0x74, 0x4d, 0x75, 0x6c, 0x3b, 0x73, 0x65, 0x71, 0x75,
  0x65, 0x6e, 0x74, 0x69, 0x61, 0x6c, 0x5f, 0x31, 0x2f, 0x64, 0x65, 0x6e,
  0x73, 0x65, 0x5f, 0x31, 0x2f, 0x42, 0x69, 0x61, 0x73, 0x41, 0x64, 0x64,
  0x00, 0x00, 0x00, 0x00, 0x02, 0x00, 0x00, 0x00, 0x01, 0x00, 0x00, 0x00,
  0x0a, 0x00, 0x00, 0x00, 0xb2, 0xf7, 0xff, 0xff, 0x00, 0x00, 0x00, 0x01,
  0x18, 0x00, 0x00, 0x00, 0x20, 0x00, 0x00, 0x00, 0x40, 0x00, 0x00, 0x00,
  0x0b, 0x00, 0x00, 0x00, 0x00, 0x00, 0x00, 0x09, 0x68, 0x00, 0x00, 0x00,
  0x02, 0x00, 0x00, 0x00, 0xff, 0xff, 0xff, 0xff, 0x10, 0x00, 0x00, 0x00,
  0x94, 0xf7, 0xff, 0xff, 0x08, 0x00, 0x00, 0x00, 0x14, 0x00, 0x00, 0x00,
  0x01, 0x00, 0x00, 0x00, 0x80, 0xff, 0xff, 0xff, 0xff, 0xff, 0xff, 0xff,
  0x00, 0x00, 0x00, 0x00, 0x01, 0x00, 0x00, 0x00, 0x15, 0xdb, 0x83, 0x3c,
  0x2c, 0x00, 0x00, 0x00, 0x73, 0x65, 0x71, 0x75, 0x65, 0x6e, 0x74, 0x69,
  0x61, 0x6c, 0x5f, 0x31, 0x2f, 0x67, 0x6c, 0x6f, 0x62, 0x61, 0x6c, 0x5f,
  0x61, 0x76, 0x65, 0x72, 0x61, 0x67, 0x65, 0x5f, 0x70, 0x6f, 0x6f, 0x6c,
  0x69, 0x6e, 0x67, 0x32, 0x64, 0x5f, 0x31, 0x2f, 0x4d, 0x65, 0x61, 0x6e,
  0x00, 0x00, 0x00, 0x00, 0x02, 0x00, 0x00, 0x00, 0x01, 0x00, 0x00, 0x00,
  0x10, 0x00, 0x00, 0x00, 0x42, 0xf8, 0xff, 0xff, 0x00, 0x00, 0x00, 0x01,
  0x18, 0x00, 0x00, 0x00, 0x28, 0x00, 0x00, 0x00, 0x48, 0x00, 0x00, 0x00,
  0x0a, 0x00, 0x00, 0x00, 0x00, 0x00, 0x00, 0x09, 0xe8, 0x00, 0x00, 0x00,
  0x04, 0x00, 0x00, 0x00, 0xff, 0xff, 0xff, 0xff, 0x07, 0x00, 0x00, 0x00,
  0x07, 0x00, 0x00, 0x00, 0x10, 0x00, 0x00, 0x00, 0x2c, 0xf8, 0xff, 0xff,
  0x08, 0x00, 0x00, 0x00, 0x14, 0x00, 0x00, 0x00, 0x01, 0x00, 0x00, 0x00,
  0x80, 0xff, 0xff, 0xff, 0xff, 0xff, 0xff, 0xff, 0x00, 0x00, 0x00, 0x00,
  0x01, 0x00, 0x00, 0x00, 0xcd, 0xfd, 0xf9, 0x3d, 0xa7, 0x00, 0x00, 0x00,
  0x73, 0x65, 0x71, 0x75, 0x65, 0x6e, 0x74, 0x69, 0x61, 0x6c, 0x5f, 0x31,
  0x2f, 0x72, 0x65, 0x5f, 0x6c, 0x75, 0x5f, 0x31, 0x5f, 0x32, 0x2f, 0x52,
  0x65, 0x6c, 0x75, 0x3b, 0x73, 0x65, 0x71, 0x75, 0x65, 0x6e, 0x74, 0x69,
  0x61, 0x6c, 0x5f, 0x31, 0x2f, 0x62, 0x61, 0x74, 0x63, 0x68, 0x5f, 0x6e,
  0x6f, 0x72, 0x6d, 0x61, 0x6c, 0x69, 0x7a, 0x61, 0x74, 0x69, 0x6f, 0x6e,
  0x5f, 0x31, 0x5f, 0x32, 0x2f, 0x62, 0x61, 0x74, 0x63, 0x68, 0x6e, 0x6f,
  0x72, 0x6d, 0x2f, 0x61, 0x64, 0x64, 0x5f, 0x31, 0x3b, 0x73, 0x65, 0x71,
  0x75, 0x65, 0x6e, 0x74, 0x69, 0x61, 0x6c, 0x5f, 0x31, 0x2f, 0x63, 0x6f,
  0x6e, 0x76, 0x32, 0x64, 0x5f, 0x31, 0x5f, 0x32, 0x2f, 0x63, 0x6f, 0x6e,
  0x76, 0x6f, 0x6c, 0x75, 0x74, 0x69, 0x6f, 0x6e, 0x3b, 0x73, 0x65, 0x71,
  0x75, 0x65, 0x6e, 0x74, 0x69, 0x61, 0x6c, 0x5f, 0x31, 0x2f, 0x62, 0x61,
  0x74, 0x63, 0x68, 0x5f, 0x6e, 0x6f, 0x72, 0x6d, 0x61, 0x6c, 0x69, 0x7a,
  0x61, 0x74, 0x69, 0x6f, 0x6e, 0x5f, 0x31, 0x5f, 0x32, 0x2f, 0x62, 0x61,
  0x74, 0x63, 0x68, 0x6e, 0x6f, 0x72, 0x6d, 0x2f, 0x73, 0x75, 0x62, 0x00,
  0x04, 0x00, 0x00, 0x00, 0x01, 0x00, 0x00, 0x00, 0x07, 0x00, 0x00, 0x00,
  0x07, 0x00, 0x00, 0x00, 0x10, 0x00, 0x00, 0x00, 0x5a, 0xf9, 0xff, 0xff,
  0x00, 0x00, 0x00, 0x01, 0x18, 0x00, 0x00, 0x00, 0x28, 0x00, 0x00, 0x00,
  0x44, 0x00, 0x00, 0x00, 0x09, 0x00, 0x00, 0x00, 0x00, 0x00, 0x00, 0x09,
  0xe0, 0x00, 0x00, 0x00, 0x04, 0x00, 0x00, 0x00, 0xff, 0xff, 0xff, 0xff,
  0x0e, 0x00, 0x00, 0x00, 0x0e, 0x00, 0x00, 0x00, 0x08, 0x00, 0x00, 0x00,
  0x44, 0xf9, 0xff, 0xff, 0x08, 0x00, 0x00, 0x00, 0x10, 0x00, 0x00, 0x00,
  0x01, 0x00, 0x00, 0x00, 0x80, 0xff, 0xff, 0xff, 0xff, 0xff, 0xff, 0xff,
  0x01, 0x00, 0x00, 0x00, 0xc4, 0xd1, 0x8b, 0x3c, 0xa0, 0x00, 0x00, 0x00,
  0x73, 0x65, 0x71, 0x75, 0x65, 0x6e, 0x74, 0x69, 0x61, 0x6c, 0x5f, 0x31,
  0x2f, 0x72, 0x65, 0x5f, 0x6c, 0x75, 0x5f, 0x31, 0x2f, 0x52, 0x65, 0x6c,
  0x75, 0x3b, 0x73, 0x65, 0x71, 0x75, 0x65, 0x6e, 0x74, 0x69, 0x61, 0x6c,
  0x5f, 0x31, 0x2f, 0x62, 0x61, 0x74, 0x63, 0x68, 0x5f, 0x6e, 0x6f, 0x72,
  0x6d, 0x61, 0x6c, 0x69, 0x7a, 0x61, 0x74, 0x69, 0x6f, 0x6e, 0x5f, 0x31,
  0x2f, 0x62, 0x61, 0x74, 0x63, 0x68, 0x6e, 0x6f, 0x72, 0x6d, 0x2f, 0x61,
  0x64, 0x64, 0x5f, 0x31, 0x3b, 0x73, 0x65, 0x71, 0x75, 0x65, 0x6e, 0x74,
  0x69, 0x61, 0x6c, 0x5f, 0x31, 0x2f, 0x63, 0x6f, 0x6e, 0x76, 0x32, 0x64,
  0x5f, 0x31, 0x2f, 0x63, 0x6f, 0x6e, 0x76, 0x6f, 0x6c, 0x75, 0x74, 0x69,
  0x6f, 0x6e, 0x3b, 0x73, 0x65, 0x71, 0x75, 0x65, 0x6e, 0x74, 0x69, 0x61,
  0x6c, 0x5f, 0x31, 0x2f, 0x62, 0x61, 0x74, 0x63, 0x68, 0x5f, 0x6e, 0x6f,
  0x72, 0x6d, 0x61, 0x6c, 0x69, 0x7a, 0x61, 0x74, 0x69, 0x6f, 0x6e, 0x5f,
  0x31, 0x2f, 0x62, 0x61, 0x74, 0x63, 0x68, 0x6e, 0x6f, 0x72, 0x6d, 0x2f,
  0x73, 0x75, 0x62, 0x31, 0x00, 0x00, 0x00, 0x00, 0x04, 0x00, 0x00, 0x00,
  0x01, 0x00, 0x00, 0x00, 0x0e, 0x00, 0x00, 0x00, 0x0e, 0x00, 0x00, 0x00,
  0x08, 0x00, 0x00, 0x00, 0xc2, 0xfa, 0xff, 0xff, 0x00, 0x00, 0x00, 0x01,
  0x14, 0x00, 0x00, 0x00, 0x88, 0x00, 0x00, 0x00, 0x08, 0x00, 0x00, 0x00,
  0x00, 0x00, 0x00, 0x09, 0x94, 0x00, 0x00, 0x00, 0x3c, 0xfa, 0xff, 0xff,
  0x08, 0x00, 0x00, 0x00, 0x4c, 0x00, 0x00, 0x00, 0x08, 0x00, 0x00, 0x00,
  0x00, 0x00, 0x00, 0x00, 0x00, 0x00, 0x00, 0x00, 0x00, 0x00, 0x00, 0x00,
  0x00, 0x00, 0x00, 0x00, 0x00, 0x00, 0x00, 0x00, 0x00, 0x00, 0x00, 0x00,
  0x00, 0x00, 0x00, 0x00, 0x00, 0x00, 0x00, 0x00, 0x00, 0x00, 0x00, 0x00,
  0x00, 0x00, 0x00, 0x00, 0x00, 0x00, 0x00, 0x00, 0x00, 0x00, 0x00, 0x00,
  0x00, 0x00, 0x00, 0x00, 0x00, 0x00, 0x00, 0x00, 0x00, 0x00, 0x00, 0x00,
  0x00, 0x00, 0x00, 0x00, 0x00, 0x00, 0x00, 0x00, 0x08, 0x00, 0x00, 0x00,
  0x5d, 0x17, 0x90, 0x3c, 0xf4, 0x5a, 0x9b, 0x3c, 0xdb, 0x18, 0x90, 0x3c,
  0x23, 0x84, 0x6d, 0x3c, 0x48, 0xc9, 0xce, 0x3b, 0x66, 0x3a, 0x5b, 0x3c,
  0xdd, 0xef, 0xa8, 0x3c, 0xd4, 0xb8, 0xaa, 0x3c, 0x12, 0x00, 0x00, 0x00,
  0x74, 0x66, 0x6c, 0x2e, 0x70, 0x73, 0x65, 0x75, 0x64, 0x6f, 0x5f, 0x71,
  0x63, 0x6f, 0x6e, 0x73, 0x74, 0x35, 0x00, 0x00, 0x04, 0x00, 0x00, 0x00,
  0x08, 0x00, 0x00, 0x00, 0x03, 0x00, 0x00, 0x00, 0x03, 0x00, 0x00, 0x00,
  0x01, 0x00, 0x00, 0x00, 0x82, 0xfb, 0xff, 0xff, 0x00, 0x00, 0x00, 0x01,
  0x14, 0x00, 0x00, 0x00, 0x84, 0x00, 0x00, 0x00, 0x07, 0x00, 0x00, 0x00,
  0x00, 0x00, 0x00, 0x02, 0x90, 0x00, 0x00, 0x00, 0xfc, 0xfa, 0xff, 0xff,
  0x08, 0x00, 0x00, 0x00, 0x48, 0x00, 0x00, 0x00, 0x08, 0x00, 0x00, 0x00,
  0x00, 0x00, 0x00, 0x00, 0x00, 0x00, 0x00, 0x00, 0x00, 0x00, 0x00, 0x00,
  0x00, 0x00, 0x00, 0x00, 0x00, 0x00, 0x00, 0x00, 0x00, 0x00, 0x00, 0x00,
  0x00, 0x00, 0x00, 0x00, 0x00, 0x00, 0x00, 0x00, 0x00, 0x00, 0x00, 0x00,
  0x00, 0x00, 0x00, 0x00, 0x00, 0x00, 0x00, 0x00, 0x00, 0x00, 0x00, 0x00,
  0x00, 0x00, 0x00, 0x00, 0x00, 0x00, 0x00, 0x00, 0x00, 0x00, 0x00, 0x00,
  0x00, 0x00, 0x00, 0x00, 0x08, 0x00, 0x00, 0x00, 0x06, 0xa8, 0x90, 0x38,
  0xec, 0xf6, 0x9b, 0x38, 0x85, 0xa9, 0x90, 0x38, 0x97, 0x72, 0x6e, 0x38,
  0xe2, 0x98, 0xcf, 0x37, 0x7d, 0x16, 0x5c, 0x38, 0x77, 0x99, 0xa9, 0x38,
  0x39, 0x64, 0xab, 0x38, 0x12, 0x00, 0x00, 0x00, 0x74, 0x66, 0x6c, 0x2e,
  0x70, 0x73, 0x65, 0x75, 0x64, 0x6f, 0x5f, 0x71, 0x63, 0x6f, 0x6e, 0x73,
  0x74, 0x34, 0x00, 0x00, 0x01, 0x00, 0x00, 0x00, 0x08, 0x00, 0x00, 0x00,
  0x32, 0xfc, 0xff, 0xff, 0x00, 0x00, 0x00, 0x01, 0x14, 0x00, 0x00, 0x00,
  0xe8, 0x00, 0x00, 0x00, 0x06, 0x00, 0x00, 0x00, 0x00, 0x00, 0x00, 0x09,
  0xf4, 0x00, 0x00, 0x00, 0xac, 0xfb, 0xff, 0xff, 0x08, 0x00, 0x00, 0x00,
  0x8c, 0x00, 0x00, 0x00, 0x10, 0x00, 0x00, 0x00, 0x00, 0x00, 0x00, 0x00,
  0x00, 0x00, 0x00, 0x00, 0x00, 0x00, 0x00, 0x00, 0x00, 0x00, 0x00, 0x00,
  0x00, 0x00, 0x00, 0x00, 0x00, 0x00, 0x00, 0x00, 0x00, 0x00, 0x00, 0x00,
  0x00, 0x00, 0x00, 0x00, 0x00, 0x00, 0x00, 0x00, 0x00, 0x00, 0x00, 0x00,
  0x00, 0x00, 0x00, 0x00, 0x00, 0x00, 0x00, 0x00, 0x00, 0x00, 0x00, 0x00,
  0x00, 0x00, 0x00, 0x00, 0x00, 0x00, 0x00, 0x00, 0x00, 0x00, 0x00, 0x00,
  0x00, 0x00, 0x00, 0x00, 0x00, 0x00, 0x00, 0x00, 0x00, 0x00, 0x00, 0x00,
  0x00, 0x00, 0x00, 0x00, 0x00, 0x00, 0x00, 0x00, 0x00, 0x00, 0x00, 0x00,
  0x00, 0x00, 0x00, 0x00, 0x00, 0x00, 0x00, 0x00, 0x00, 0x00, 0x00, 0x00,
  0x00, 0x00, 0x00, 0x00, 0x00, 0x00, 0x00, 0x00, 0x00, 0x00, 0x00, 0x00,
  0x00, 0x00, 0x00, 0x00, 0x00, 0x00, 0x00, 0x00, 0x00, 0x00, 0x00, 0x00,
  0x00, 0x00, 0x00, 0x00, 0x00, 0x00, 0x00, 0x00, 0x10, 0x00, 0x00, 0x00,
  0x79, 0xc3, 0x16, 0x3d, 0xaf, 0x06, 0x43, 0x3d, 0x12, 0x45, 0x23, 0x3d,
  0x94, 0x72, 0x38, 0x3d, 0xc3, 0xfb, 0x25, 0x3d, 0xd5, 0xa5, 0x3e, 0x3d,
  0x0c, 0xd3, 0x2f, 0x3d, 0x48, 0x17, 0x18, 0x3d, 0xd8, 0xe1, 0x51, 0x3d,
  0xce, 0x2c, 0x2e, 0x3d, 0x9e, 0x8d, 0x4f, 0x3d, 0x2b, 0x9a, 0x29, 0x3d,
  0x00, 0xe3, 0x6b, 0x3d, 0x5b, 0x23, 0x01, 0x3d, 0x3e, 0x01, 0x4a, 0x3d,
  0x5f, 0x48, 0x4d, 0x3d, 0x12, 0x00, 0x00, 0x00, 0x74, 0x66, 0x6c, 0x2e,
  0x70, 0x73, 0x65, 0x75, 0x64, 0x6f, 0x5f, 0x71, 0x63, 0x6f, 0x6e, 0x73,
  0x74, 0x33, 0x00, 0x00, 0x04, 0x00, 0x00, 0x00, 0x10, 0x00, 0x00, 0x00,
  0x03, 0x00, 0x00, 0x00, 0x03, 0x00, 0x00, 0x00, 0x08, 0x00, 0x00, 0x00,
  0x52, 0xfd, 0xff, 0xff, 0x00, 0x00, 0x00, 0x01, 0x14, 0x00, 0x00, 0x00,
  0xe4, 0x00, 0x00, 0x00, 0x05, 0x00, 0x00, 0x00, 0x00, 0x00, 0x00, 0x02,
  0xf0, 0x00, 0x00, 0x00, 0xcc, 0xfc, 0xff, 0xff, 0x08, 0x00, 0x00, 0x00,
  0x88, 0x00, 0x00, 0x00, 0x10, 0x00, 0x00, 0x00, 0x00, 0x00, 0x00, 0x00,
  0x00, 0x00, 0x00, 0x00, 0x00, 0x00, 0x00, 0x00, 0x00, 0x00, 0x00, 0x00,
  0x00, 0x00, 0x00, 0x00, 0x00, 0x00, 0x00, 0x00, 0x00, 0x00, 0x00, 0x00,
  0x00, 0x00, 0x00, 0x00, 0x00, 0x00, 0x00, 0x00, 0x00, 0x00, 0x00, 0x00,
  0x00, 0x00, 0x00, 0x00, 0x00, 0x00, 0x00, 0x00, 0x00, 0x00, 0x00, 0x00,
  0x00, 0x00, 0x00, 0x00, 0x00, 0x00, 0x00, 0x00, 0x00, 0x00, 0x00, 0x00,
  0x00, 0x00, 0x00, 0x00, 0x00, 0x00, 0x00, 0x00, 0x00, 0x00, 0x00, 0x00,
  0x00, 0x00, 0x00, 0x00, 0x00, 0x00, 0x00, 0x00, 0x00, 0x00, 0x00, 0x00,
  0x00, 0x00, 0x00, 0x00, 0x00, 0x00, 0x00, 0x00, 0x00, 0x00, 0x00, 0x00,
  0x00, 0x00, 0x00, 0x00, 0x00, 0x00, 0x00, 0x00, 0x00, 0x00, 0x00, 0x00,
  0x00, 0x00, 0x00, 0x00, 0x00, 0x00, 0x00, 0x00, 0x00, 0x00, 0x00, 0x00,
  0x00, 0x00, 0x00, 0x00, 0x10, 0x00, 0x00, 0x00, 0x57, 0xaf, 0x24, 0x3a,
  0xde, 0x08, 0x55, 0x3a, 0x92, 0x58, 0x32, 0x3a, 0xb2, 0x7a, 0x49, 0x3a,
  0x69, 0x4f, 0x35, 0x3a, 0x84, 0x40, 0x50, 0x3a, 0x53, 0x0f, 0x40, 0x3a,
  0x87, 0x22, 0x26, 0x3a, 0x35, 0x43, 0x65, 0x3a, 0x18, 0x42, 0x3e, 0x3a,
  0xed, 0xb7, 0x62, 0x3a, 0x5c, 0x43, 0x39, 0x3a, 0x8a, 0xd5, 0x80, 0x3a,
  0x06, 0x10, 0x0d, 0x3a, 0x65, 0xa8, 0x5c, 0x3a, 0x02, 0x3d, 0x60, 0x3a,
  0x12, 0x00, 0x00, 0x00, 0x74, 0x66, 0x6c, 0x2e, 0x70, 0x73, 0x65, 0x75,
  0x64, 0x6f, 0x5f, 0x71, 0x63, 0x6f, 0x6e, 0x73, 0x74, 0x32, 0x00, 0x00,
  0x01, 0x00, 0x00, 0x00, 0x10, 0x00, 0x00, 0x00, 0x62, 0xfe, 0xff, 0xff,
  0x00, 0x00, 0x00, 0x01, 0x14, 0x00, 0x00, 0x00, 0xa0, 0x00, 0x00, 0x00,
  0x04, 0x00, 0x00, 0x00, 0x00, 0x00, 0x00, 0x09, 0xac, 0x00, 0x00, 0x00,
  0xdc, 0xfd, 0xff, 0xff, 0x08, 0x00, 0x00, 0x00, 0x5c, 0x00, 0x00, 0x00,
  0x0a, 0x00, 0x00, 0x00, 0x00, 0x00, 0x00, 0x00, 0x00, 0x00, 0x00, 0x00,
  0x00, 0x00, 0x00, 0x00, 0x00, 0x00, 0x00, 0x00, 0x00, 0x00, 0x00, 0x00,
  0x00, 0x00, 0x00, 0x00, 0x00, 0x00, 0x00, 0x00, 0x00, 0x00, 0x00, 0x00,
  0x00, 0x00, 0x00, 0x00, 0x00, 0x00, 0x00, 0x00, 0x00, 0x00, 0x00, 0x00,
  0x00, 0x00, 0x00, 0x00, 0x00, 0x00, 0x00, 0x00, 0x00, 0x00, 0x00, 0x00,
  0x00, 0x00, 0x00, 0x00, 0x00, 0x00, 0x00, 0x00, 0x00, 0x00, 0x00, 0x00,
  0x00, 0x00, 0x00, 0x00, 0x00, 0x00, 0x00, 0x00, 0x00, 0x00, 0x00, 0x00,
  0x00, 0x00, 0x00, 0x00, 0x0a, 0x00, 0x00, 0x00, 0xf8, 0x5a, 0xb2, 0x3c,
  0xd5, 0xf4, 0xc4, 0x3c, 0xf1, 0xb2, 0x83, 0x3c, 0xa1, 0x27, 0x0e, 0x3d,
  0x95, 0x23, 0x94, 0x3c, 0xe7, 0x5d, 0x9b, 0x3c, 0xcc, 0xa1, 0xe6, 0x3c,
  0x7d, 0xd3, 0xa0, 0x3c, 0xe0, 0xa7, 0xd2, 0x3c, 0x9f, 0x67, 0x98, 0x3c,
  0x12, 0x00, 0x00, 0x00, 0x74, 0x66, 0x6c, 0x2e, 0x70, 0x73, 0x65, 0x75,
  0x64, 0x6f, 0x5f, 0x71, 0x63, 0x6f, 0x6e, 0x73, 0x74, 0x31, 0x00, 0x00,
  0x02, 0x00, 0x00, 0x00, 0x0a, 0x00, 0x00, 0x00, 0x10, 0x00, 0x00, 0x00,
  0x32, 0xff, 0xff, 0xff, 0x00, 0x00, 0x00, 0x01, 0x14, 0x00, 0x00, 0x00,
  0xa0, 0x00, 0x00, 0x00, 0x03, 0x00, 0x00, 0x00, 0x00, 0x00, 0x00, 0x02,
  0xac, 0x00, 0x00, 0x00, 0xac, 0xfe, 0xff, 0xff, 0x08, 0x00, 0x00, 0x00,
  0x5c, 0x00, 0x00, 0x00, 0x0a, 0x00, 0x00, 0x00, 0x00, 0x00, 0x00, 0x00,
  0x00, 0x00, 0x00, 0x00, 0x00, 0x00, 0x00, 0x00, 0x00, 0x00, 0x00, 0x00,
  0x00, 0x00, 0x00, 0x00, 0x00, 0x00, 0x00, 0x00, 0x00, 0x00, 0x00, 0x00,
  0x00, 0x00, 0x00, 0x00, 0x00, 0x00, 0x00, 0x00, 0x00, 0x00, 0x00, 0x00,
  0x00, 0x00, 0x00, 0x00, 0x00, 0x00, 0x00, 0x00, 0x00, 0x00, 0x00, 0x00,
  0x00, 0x00, 0x00, 0x00, 0x00, 0x00, 0x00, 0x00, 0x00, 0x00, 0x00, 0x00,
  0x00, 0x00, 0x00, 0x00, 0x00, 0x00, 0x00, 0x00, 0x00, 0x00, 0x00, 0x00,
  0x00, 0x00, 0x00, 0x00, 0x00, 0x00, 0x00, 0x00, 0x0a, 0x00, 0x00, 0x00,
  0x5f, 0xba, 0xb7, 0x39, 0xad, 0xe3, 0xca, 0x39, 0x8c, 0xaa, 0x87, 0x39,
  0xde, 0x6f, 0x12, 0x3a, 0xf8, 0x99, 0x98, 0x39, 0x07, 0x0c, 0xa0, 0x39,
  0x55, 0x94, 0xed, 0x39, 0xb6, 0xab, 0xa5, 0x39, 0x5d, 0x00, 0xd9, 0x39,
  0xe7, 0xfe, 0x9c, 0x39, 0x11, 0x00, 0x00, 0x00, 0x74, 0x66, 0x6c, 0x2e,
  0x70, 0x73, 0x65, 0x75, 0x64, 0x6f, 0x5f, 0x71, 0x63, 0x6f, 0x6e, 0x73,
  0x74, 0x00, 0x00, 0x00, 0x01, 0x00, 0x00, 0x00, 0x0a, 0x00, 0x00, 0x00,
  0x00, 0x00, 0x16, 0x00, 0x1c, 0x00, 0x18, 0x00, 0x17, 0x00, 0x10, 0x00,
  0x0c, 0x00, 0x08, 0x00, 0x00, 0x00, 0x00, 0x00, 0x00, 0x00, 0x07, 0x00,
  0x16, 0x00, 0x00, 0x00, 0x00, 0x00, 0x00, 0x01, 0x18, 0x00, 0x00, 0x00,
  0x18, 0x00, 0x00, 0x00, 0x02, 0x00, 0x00, 0x00, 0x00, 0x00, 0x00, 0x02,
  0x20, 0x00, 0x00, 0x00, 0x04, 0x00, 0x04, 0x00, 0x04, 0x00, 0x00, 0x00,
  0x0e, 0x00, 0x00, 0x00, 0x61, 0x72, 0x69, 0x74, 0x68, 0x2e, 0x63, 0x6f,
  0x6e, 0x73, 0x74, 0x61, 0x6e, 0x74, 0x00, 0x00, 0x01, 0x00, 0x00, 0x00,
  0x02, 0x00, 0x00, 0x00, 0x00, 0x00, 0x16, 0x00, 0x20, 0x00, 0x1c, 0x00,
  0x1b, 0x00, 0x14, 0x00, 0x10, 0x00, 0x0c, 0x00, 0x00, 0x00, 0x00, 0x00,
  0x08, 0x00, 0x07, 0x00, 0x16, 0x00, 0x00, 0x00, 0x00, 0x00, 0x00, 0x01,
  0x18, 0x00, 0x00, 0x00, 0x34, 0x00, 0x00, 0x00, 0x50, 0x00, 0x00, 0x00,
  0x01, 0x00, 0x00, 0x00, 0x00, 0x00, 0x00, 0x09, 0x68, 0x00, 0x00, 0x00,
  0x04, 0x00, 0x00, 0x00, 0xff, 0xff, 0xff, 0xff, 0x1c, 0x00, 0x00, 0x00,
  0x1c, 0x00, 0x00, 0x00, 0x01, 0x00, 0x00, 0x00, 0x0c, 0x00, 0x0c, 0x00,
  0x00, 0x00, 0x00, 0x00, 0x08, 0x00, 0x04, 0x00, 0x0c, 0x00, 0x00, 0x00,
  0x08, 0x00, 0x00, 0x00, 0x10, 0x00, 0x00, 0x00, 0x01, 0x00, 0x00, 0x00,
  0x80, 0xff, 0xff, 0xff, 0xff, 0xff, 0xff, 0xff, 0x01, 0x00, 0x00, 0x00,
  0x81, 0x80, 0x80, 0x3b, 0x1e, 0x00, 0x00, 0x00, 0x73, 0x65, 0x72, 0x76,
  0x69, 0x6e, 0x67, 0x5f, 0x64, 0x65, 0x66, 0x61, 0x75, 0x6c, 0x74, 0x5f,
  0x6b, 0x65, 0x72, 0x61, 0x73, 0x5f, 0x74, 0x65, 0x6e, 0x73, 0x6f, 0x72,
  0x3a, 0x30, 0x00, 0x00, 0x04, 0x00, 0x00, 0x00, 0x01, 0x00, 0x00, 0x00,
  0x1c, 0x00, 0x00, 0x00, 0x1c, 0x00, 0x00, 0x00, 0x01, 0x00, 0x00, 0x00,
  0x04, 0x00, 0x00, 0x00, 0x4c, 0x00, 0x00, 0x00, 0x2c, 0x00, 0x00, 0x00,
  0x18, 0x00, 0x00, 0x00, 0x04, 0x00, 0x00, 0x00, 0xd0, 0xff, 0xff, 0xff,
  0x19, 0x00, 0x00, 0x00, 0x02, 0x00, 0x00, 0x00, 0x00, 0x00, 0x00, 0x19,
  0xe0, 0xff, 0xff, 0xff, 0x09, 0x00, 0x00, 0x00, 0x04, 0x00, 0x00, 0x00,
  0x00, 0x00, 0x00, 0x09, 0xf0, 0xff, 0xff, 0xff, 0x28, 0x00, 0x00, 0x00,
  0x02, 0x00, 0x00, 0x00, 0x00, 0x00, 0x00, 0x28, 0x0c, 0x00, 0x10, 0x00,
  0x0f, 0x00, 0x00, 0x00, 0x08, 0x00, 0x04, 0x00, 0x0c, 0x00, 0x00, 0x00,
  0x03, 0x00, 0x00, 0x00, 0x03, 0x00, 0x00, 0x00, 0x00, 0x00, 0x00, 0x03,
};

const unsigned int mnist_cnn_int8_model_len = 5304;
